#include "network_data.h"

ai_handle ai_network_data_weights_get(void)
{

  AI_ALIGNED(4)
  static const ai_u8 s_network_weights[ 2056 ] = {
    0xac, 0x0d, 0x06, 0xbe, 0x08, 0x96, 0x22, 0x3e, 0xf4, 0x1c,
    0xfa, 0xbe, 0x98, 0xa2, 0x99, 0xbd, 0xdc, 0x1a, 0x9a, 0xbe,
    0xd8, 0x66, 0xba, 0xbe, 0xe6, 0x64, 0xd4, 0xbe, 0xbf, 0xa2,
    0x2f, 0x3f, 0x85, 0x4b, 0x86, 0x3e, 0x90, 0x6d, 0xae, 0xbd,
    0x89, 0xba, 0xbe, 0x3e, 0xc6, 0x13, 0xcd, 0xbe, 0x6c, 0xce,
    0x37, 0x3f, 0xb8, 0x21, 0x08, 0xbf, 0x50, 0x19, 0x6b, 0xbd,
    0x6c, 0x05, 0x19, 0x3f, 0x00, 0x00, 0x00, 0x00, 0x9b, 0x11,
    0x5a, 0xbd, 0x00, 0x00, 0x00, 0x00, 0x00, 0x00, 0x00, 0x00,
    0x00, 0x00, 0x00, 0x00, 0x00, 0x00, 0x00, 0x00, 0x00, 0x00,
    0x00, 0x00, 0xda, 0x46, 0xce, 0xbd, 0xf9, 0xaf, 0x0f, 0x3e,
    0x00, 0x00, 0x00, 0x00, 0x91, 0x31, 0xb7, 0xbd, 0x00, 0x00,
    0x00, 0x00, 0x00, 0x60, 0xd9, 0xbd, 0x00, 0x00, 0x00, 0x00,
    0x00, 0x00, 0x00, 0x00, 0x35, 0x3a, 0xff, 0xbd, 0x33, 0x25,
    0xb3, 0xba, 0x52, 0x62, 0x8c, 0x9a, 0x54, 0x55, 0x77, 0x2d,
    0x49, 0x4e, 0x4a, 0x74, 0x72, 0x72, 0x2c, 0x7b, 0x48, 0x86,
    0x9a, 0x3c, 0x9c, 0x4f, 0x4a, 0x3a, 0x79, 0x80, 0x8e, 0x71,
    0xbb, 0x77, 0x83, 0xaf, 0x77, 0x32, 0xbf, 0xcd, 0xaf, 0x49,
    0xd8, 0x24, 0xd5, 0x3f, 0x95, 0xa2, 0x65, 0x6a, 0xbf, 0x44,
    0xb3, 0x54, 0x6a, 0x71, 0x5e, 0x65, 0x98, 0x65, 0xe8, 0x76,
    0xb8, 0xa0, 0xbb, 0x27, 0x42, 0x7d, 0x45, 0x4c, 0x40, 0x8a,
    0x2a, 0x73, 0x56, 0x88, 0x67, 0x59, 0x81, 0x68, 0x62, 0xdc,
    0x85, 0x4b, 0x7c, 0x90, 0xac, 0xed, 0xa8, 0xb2, 0x86, 0x89,
    0x96, 0x5a, 0x98, 0x86, 0x39, 0xc5, 0x25, 0xbd, 0x65, 0x93,
    0xa1, 0x29, 0x4e, 0x94, 0x86, 0x59, 0x8e, 0x52, 0xa9, 0xa5,
    0x4e, 0x5b, 0x4f, 0x26, 0x26, 0x56, 0xad, 0x55, 0x67, 0xbf,
    0x66, 0x66, 0x5d, 0xae, 0xb9, 0xa4, 0xb0, 0x98, 0xa8, 0x99,
    0xa0, 0x8e, 0x58, 0xa1, 0x4f, 0x4e, 0x84, 0x53, 0x56, 0x6d,
    0x83, 0x3c, 0x9c, 0x16, 0x7e, 0x41, 0x6f, 0x91, 0xad, 0x70,
    0x93, 0x2b, 0x6e, 0xa3, 0x73, 0x88, 0x89, 0x05, 0x59, 0x31,
    0x69, 0x32, 0xbd, 0xbe, 0xbd, 0x3c, 0x3a, 0x38, 0x58, 0x5a,
    0x33, 0x36, 0xbd, 0x5c, 0x9c, 0x25, 0x3c, 0x32, 0xb5, 0x4e,
    0x5b, 0x4e, 0xb7, 0x53, 0x4a, 0x67, 0x1a, 0x85, 0x8d, 0x86,
    0x2d, 0x87, 0x6a, 0x8d, 0xa4, 0x32, 0x5d, 0x72, 0xa2, 0x97,
    0x78, 0xae, 0x5a, 0x2d, 0xb4, 0x4e, 0xc1, 0x84, 0x8a, 0x64,
    0xc4, 0xaa, 0xc5, 0xd8, 0xcf, 0x35, 0x62, 0x65, 0x7b, 0x41,
    0x26, 0xd4, 0xb0, 0x6f, 0x9b, 0x90, 0xad, 0x27, 0x47, 0xb5,
    0x44, 0xc1, 0xbb, 0xa3, 0x91, 0x8c, 0x39, 0xde, 0x3e, 0xa6,
    0x78, 0x63, 0x9b, 0x41, 0x3e, 0xa5, 0xad, 0x68, 0xe2, 0x48,
    0xb8, 0x59, 0xb3, 0xbf, 0xa4, 0xef, 0x2a, 0x2b, 0x73, 0x7d,
    0x4b, 0xc7, 0x50, 0x56, 0x55, 0xa7, 0xe1, 0x92, 0x31, 0x60,
    0x94, 0x3c, 0x80, 0xc3, 0xbf, 0x30, 0x77, 0x48, 0x73, 0xab,
    0xb5, 0x4d, 0x48, 0xa2, 0x25, 0x3d, 0xbe, 0x65, 0x55, 0x8a,
    0xaa, 0x4b, 0x9f, 0x84, 0x49, 0x76, 0x84, 0x36, 0xe9, 0x44,
    0x60, 0xee, 0xa0, 0x86, 0x3c, 0x5e, 0xa5, 0x6c, 0xa0, 0xa8,
    0x64, 0x23, 0x57, 0xb0, 0x34, 0xb1, 0xa6, 0x87, 0x91, 0x0f,
    0x5b, 0xa2, 0x8b, 0x30, 0x59, 0x2f, 0xcd, 0x38, 0x60, 0x8b,
    0x75, 0x81, 0xb6, 0x2b, 0xb1, 0x9a, 0x45, 0x93, 0xc2, 0x64,
    0x28, 0x90, 0xc9, 0x33, 0xcb, 0xb2, 0x85, 0xb5, 0xb0, 0x80,
    0x3f, 0x6a, 0xa9, 0x88, 0x48, 0x87, 0x9d, 0x94, 0xa7, 0xa2,
    0x32, 0x45, 0x60, 0x89, 0x37, 0x3c, 0x46, 0x27, 0x5c, 0x55,
    0x4e, 0x4a, 0x40, 0x54, 0x94, 0xad, 0x1f, 0xbf, 0x8e, 0xb4,
    0x81, 0x32, 0xbe, 0x43, 0x57, 0xba, 0x66, 0x63, 0x47, 0x7e,
    0x9c, 0x94, 0x30, 0xab, 0x57, 0x37, 0xb3, 0x23, 0x71, 0xda,
    0x32, 0xc0, 0x55, 0x78, 0x4d, 0x85, 0x85, 0xbb, 0xe3, 0xa4,
    0x75, 0x7f, 0xa0, 0xd4, 0x9e, 0x56, 0xb0, 0x34, 0xbe, 0x60,
    0xa1, 0xa2, 0x7c, 0x92, 0xda, 0x9c, 0xaf, 0x41, 0xae, 0x91,
    0x9e, 0xff, 0xad, 0x4f, 0x61, 0x3a, 0x91, 0xc5, 0x79, 0x73,
    0x8c, 0x55, 0xb9, 0x45, 0xc4, 0xe8, 0x35, 0xc1, 0x7e, 0xbc,
    0x26, 0xaa, 0x55, 0x2b, 0x93, 0xb0, 0x40, 0x9a, 0x43, 0x44,
    0x9b, 0x31, 0xbf, 0x00, 0x79, 0xc3, 0x9e, 0x82, 0x4a, 0x72,
    0x52, 0x65, 0x3b, 0xa6, 0x55, 0x27, 0xc0, 0x6f, 0x37, 0x3a,
    0x8d, 0x52, 0x90, 0x9b, 0xa8, 0x36, 0x60, 0x29, 0x7e, 0xa8,
    0x43, 0x61, 0x5e, 0x8c, 0x90, 0x0d, 0x61, 0x2a, 0x95, 0x8c,
    0x40, 0x8c, 0xa6, 0x7b, 0x5b, 0x5a, 0xa2, 0xb6, 0xae, 0x99,
    0x56, 0xeb, 0x01, 0xbf, 0xf9, 0xcc, 0x00, 0xbf, 0x39, 0x5d,
    0xff, 0xbe, 0x80, 0x20, 0xfd, 0xbe, 0xc6, 0xe3, 0xfa, 0xbe,
    0xf1, 0xb6, 0xf7, 0xbe, 0x53, 0x6a, 0xf6, 0xbe, 0x9a, 0x2d,
    0xf4, 0xbe, 0xe0, 0xf0, 0xf1, 0xbe, 0x27, 0xb4, 0xef, 0xbe,
    0x6d, 0x77, 0xed, 0xbe, 0xb4, 0x3a, 0xeb, 0xbe, 0xfa, 0xfd,
    0xe8, 0xbe, 0xef, 0xbd, 0xe5, 0xbe, 0x88, 0x84, 0xe4, 0xbe,
    0xa5, 0xc8, 0xe1, 0xbe, 0x15, 0x0b, 0xe0, 0xbe, 0x5b, 0xce,
    0xdd, 0xbe, 0xa2, 0x91, 0xdb, 0xbe, 0xe8, 0x54, 0xd9, 0xbe,
    0x2f, 0x18, 0xd7, 0xbe, 0x75, 0xdb, 0xd4, 0xbe, 0x97, 0xb7,
    0xd3, 0xbe, 0x02, 0x62, 0xd0, 0xbe, 0x49, 0x25, 0xce, 0xbe,
    0x90, 0xe8, 0xcb, 0xbe, 0x56, 0xdb, 0xc8, 0xbe, 0x1d, 0x6f,
    0xc7, 0xbe, 0x63, 0x32, 0xc5, 0xbe, 0xaa, 0xf5, 0xc2, 0xbe,
    0xf0, 0xb8, 0xc0, 0xbe, 0xc0, 0xc6, 0xbe, 0xbe, 0x7d, 0x3f,
    0xbc, 0xbe, 0xc4, 0x02, 0xba, 0xbe, 0x0a, 0xc6, 0xb7, 0xbe,
    0xe8, 0xd4, 0xb4, 0xbe, 0x6f, 0xab, 0xb2, 0xbe, 0x44, 0x79,
    0xb1, 0xbe, 0x30, 0x2d, 0xaf, 0xbe, 0x65, 0x3a, 0xac, 0xbe,
    0xf6, 0x56, 0xa9, 0xbe, 0xe1, 0x0d, 0xa7, 0xbe, 0xd0, 0x29,
    0xa6, 0xbe, 0x11, 0xbf, 0xa3, 0xbe, 0x48, 0x00, 0xa1, 0xbe,
    0x4f, 0x08, 0x9f, 0xbe, 0x59, 0xed, 0x9c, 0xbe, 0x82, 0x92,
    0x9a, 0xbe, 0x47, 0xda, 0x98, 0xbe, 0xda, 0x98, 0x96, 0xbe,
    0x75, 0x39, 0x94, 0xbe, 0xdf, 0xd8, 0x91, 0xbe, 0xa0, 0x6f,
    0x8f, 0xbe, 0x3c, 0xd6, 0x8d, 0xbe, 0xe7, 0x8e, 0x8b, 0xbe,
    0xc0, 0x57, 0x88, 0xbe, 0xd4, 0x1a, 0x87, 0xbe, 0xed, 0x6a,
    0x84, 0xbe, 0xf0, 0xf2, 0x81, 0xbe, 0x84, 0x18, 0x80, 0xbe,
    0x8e, 0xfa, 0x7b, 0xbe, 0x64, 0xfc, 0x76, 0xbe, 0xa9, 0xeb,
    0x71, 0xbe, 0x00, 0xdc, 0x6d, 0xbe, 0x1a, 0x1e, 0x69, 0xbe,
    0xaf, 0xd7, 0x65, 0xbe, 0xf8, 0x40, 0x5e, 0xbe, 0x74, 0x32,
    0x5a, 0xbe, 0x1c, 0x76, 0x55, 0xbe, 0x31, 0x3a, 0x52, 0xbe,
    0xe6, 0x7d, 0x4c, 0xbe, 0x66, 0xb1, 0x49, 0xbe, 0xa0, 0xb9,
    0x44, 0xbe, 0xf3, 0x90, 0x41, 0xbe, 0x1a, 0x98, 0x3d, 0xbe,
    0xe4, 0x07, 0x36, 0xbe, 0x74, 0x8b, 0x31, 0xbe, 0x94, 0x3f,
    0x2e, 0xbe, 0xdb, 0xa0, 0x2a, 0xbe, 0x12, 0x02, 0x27, 0xbe,
    0xf9, 0xfa, 0x21, 0xbe, 0xfc, 0x3f, 0x1d, 0xbe, 0x3d, 0x6d,
    0x19, 0xbe, 0x7e, 0xb8, 0x13, 0xbe, 0xab, 0x61, 0x0f, 0xbe,
    0x24, 0xbf, 0x0b, 0xbe, 0x6d, 0xbb, 0x06, 0xbe, 0x8c, 0x42,
    0x01, 0xbe, 0x60, 0x80, 0xfa, 0xbd, 0x9a, 0x36, 0xf0, 0xbd,
    0xb1, 0x90, 0xe6, 0xbd, 0x98, 0xe5, 0xdf, 0xbd, 0x71, 0x35,
    0xd9, 0xbd, 0xdf, 0x84, 0xd2, 0xbd, 0x25, 0xe5, 0xc7, 0xbd,
    0x66, 0x37, 0xbd, 0xbd, 0x45, 0xea, 0xb3, 0xbd, 0xc0, 0x12,
    0xac, 0xbd, 0xe9, 0xbf, 0xa5, 0xbd, 0x56, 0x25, 0x99, 0xbd,
    0x80, 0x18, 0x93, 0xbd, 0xfb, 0x12, 0x89, 0xbd, 0xd4, 0x00,
    0x83, 0xbd, 0x19, 0xe8, 0x6e, 0xbd, 0x46, 0x60, 0x5b, 0xbd,
    0x30, 0x42, 0x42, 0xbd, 0x32, 0xbb, 0x33, 0xbd, 0x3f, 0xa9,
    0x23, 0xbd, 0x90, 0x33, 0x10, 0xbd, 0xc0, 0xa3, 0x06, 0xbd,
    0xf8, 0x29, 0xd3, 0xbc, 0x25, 0x73, 0xb5, 0xbc, 0x46, 0xc3,
    0x9b, 0xbc, 0x73, 0x89, 0x35, 0xbc, 0x9a, 0xae, 0x05, 0xbc,
    0x45, 0xaa, 0x89, 0xbb, 0x03, 0xa0, 0xc7, 0x38, 0x22, 0x1e,
    0xa4, 0x3b, 0xf0, 0x33, 0x03, 0x3c, 0xb0, 0x44, 0x62, 0x3c,
    0x54, 0xe2, 0x8e, 0x3c, 0xbf, 0xda, 0xb1, 0x3c, 0x60, 0x9b,
    0xd1, 0x3c, 0xd8, 0x75, 0xf3, 0x3c, 0xc6, 0x6b, 0x10, 0x3d,
    0x78, 0x34, 0x16, 0x3d, 0x54, 0x19, 0x32, 0x3d, 0xe8, 0x72,
    0x45, 0x3d, 0x39, 0xd1, 0x5a, 0x3d, 0x3d, 0xdd, 0x64, 0x3d,
    0x88, 0x62, 0x76, 0x3d, 0xe2, 0xb5, 0x82, 0x3d, 0x3d, 0x26,
    0x8e, 0x3d, 0xbe, 0xb9, 0x96, 0x3d, 0x01, 0x6f, 0x9f, 0x3d,
    0xd3, 0xcb, 0xaa, 0x3d, 0x84, 0x1b, 0xaf, 0x3d, 0x2b, 0xdd,
    0xb8, 0x3d, 0x98, 0xab, 0xc6, 0x3d, 0xe8, 0x51, 0xcc, 0x3d,
    0x3d, 0x17, 0xd4, 0x3d, 0x1d, 0x70, 0xde, 0x3d, 0xe1, 0xb5,
    0xe7, 0x3d, 0xb2, 0x53, 0xf0, 0x3d, 0x5a, 0xaa, 0xf7, 0x3d,
    0xfa, 0xf3, 0x00, 0x3e, 0xa0, 0x7b, 0x06, 0x3e, 0xb6, 0x16,
    0x0a, 0x3e, 0x60, 0x7b, 0x0f, 0x3e, 0x28, 0x66, 0x13, 0x3e,
    0x6c, 0x71, 0x16, 0x3e, 0x7a, 0x1e, 0x1e, 0x3e, 0x78, 0xdd,
    0x21, 0x3e, 0xa7, 0xbd, 0x24, 0x3e, 0x96, 0x26, 0x29, 0x3e,
    0xce, 0x9b, 0x2f, 0x3e, 0x45, 0xf5, 0x33, 0x3e, 0x7e, 0x1a,
    0x36, 0x3e, 0x08, 0xd4, 0x3a, 0x3e, 0x1e, 0x21, 0x40, 0x3e,
    0xd0, 0x34, 0x43, 0x3e, 0x25, 0xb3, 0x47, 0x3e, 0x19, 0xdb,
    0x4c, 0x3e, 0x70, 0x8a, 0x52, 0x3e, 0xf2, 0x22, 0x55, 0x3e,
    0x88, 0x2b, 0x5a, 0x3e, 0x2f, 0x36, 0x61, 0x3e, 0x08, 0xad,
    0x62, 0x3e, 0x4d, 0x3e, 0x67, 0x3e, 0xbe, 0x7c, 0x6e, 0x3e,
    0xab, 0x27, 0x72, 0x3e, 0x8a, 0x0d, 0x76, 0x3e, 0x36, 0x42,
    0x7c, 0x3e, 0x04, 0xaa, 0x7f, 0x3e, 0xd4, 0xa2, 0x81, 0x3e,
    0x05, 0xcb, 0x83, 0x3e, 0x15, 0x0a, 0x86, 0x3e, 0x95, 0xb9,
    0x87, 0x3e, 0x67, 0x17, 0x8a, 0x3e, 0xa6, 0xaa, 0x8c, 0x3e,
    0x2f, 0xc4, 0x8e, 0x3e, 0x29, 0xea, 0x90, 0x3e, 0xc4, 0xdb,
    0x92, 0x3e, 0xcb, 0x65, 0x96, 0x3e, 0xde, 0x4c, 0x98, 0x3e,
    0xd2, 0xc4, 0x9a, 0x3e, 0xde, 0x6b, 0x9c, 0x3e, 0x9d, 0x37,
    0x9e, 0x3e, 0xf9, 0xd0, 0xa0, 0x3e, 0x1c, 0xe8, 0xa2, 0x3e,
    0x8b, 0x42, 0xa5, 0x3e, 0x6a, 0x6a, 0xa7, 0x3e, 0x09, 0x52,
    0xaa, 0x3e, 0x60, 0x1c, 0xac, 0x3e, 0x1b, 0x36, 0xad, 0x3e,
    0x21, 0xae, 0xaf, 0x3e, 0x30, 0xc8, 0xb2, 0x3e, 0x69, 0xfc,
    0xb3, 0x3e, 0xc5, 0x20, 0xb7, 0x3e, 0x5a, 0x7e, 0xb9, 0x3e,
    0x38, 0x9a, 0xbb, 0x3e, 0xf8, 0xc5, 0xbe, 0x3e, 0xab, 0x13,
    0xc0, 0x3e, 0x38, 0xf7, 0xc1, 0x3e, 0x1e, 0x8d, 0xc4, 0x3e,
    0xa4, 0xc4, 0xc6, 0x3e, 0x91, 0x06, 0xc9, 0x3e, 0xcc, 0x5e,
    0xcb, 0x3e, 0x03, 0x80, 0xcd, 0x3e, 0xbd, 0xbc, 0xcf, 0x3e,
    0x76, 0xf9, 0xd1, 0x3e, 0x30, 0x36, 0xd4, 0x3e, 0xc4, 0x45,
    0xd6, 0x3e, 0xc4, 0x92, 0xd8, 0x3e, 0x5c, 0xec, 0xda, 0x3e,
    0x16, 0x29, 0xdd, 0x3e, 0xfa, 0x93, 0xdf, 0x3e, 0x89, 0xa2,
    0xe1, 0x3e, 0x57, 0xfd, 0xe3, 0x3e, 0xfb, 0x1b, 0xe6, 0x3e,
    0x4d, 0xfc, 0xe8, 0x3e, 0x6e, 0x95, 0xea, 0x3e, 0xdf, 0x8b,
    0xec, 0x3e, 0xe1, 0x0e, 0xef, 0x3e, 0x9b, 0x4b, 0xf1, 0x3e,
    0xef, 0xf2, 0xf2, 0x3e, 0x85, 0x71, 0xf5, 0x3e, 0x04, 0x1b,
    0xf8, 0x3e, 0x81, 0x3e, 0xfa, 0x3e, 0x3a, 0x7b, 0xfc, 0x3e,
    0xf4, 0xb7, 0xfe, 0x3e, 0x56, 0x7a, 0x00, 0x3f, 0x19, 0x8b,
    0x01, 0x3f, 0xae, 0x48, 0x02, 0x3f, 0x6d, 0xd5, 0x03, 0x3f,
    0xc9, 0xf3, 0x04, 0x3f, 0x26, 0x12, 0x06, 0x3f, 0xad, 0xe2,
    0x06, 0x3f, 0x56, 0xcf, 0x08, 0x3f, 0x55, 0x66, 0x09, 0x3f,
    0x99, 0x8b, 0x0a, 0x3f, 0xf6, 0xa9, 0x0b, 0x3f, 0x53, 0xc8,
    0x0c, 0x3f, 0xaf, 0xe6, 0x0d, 0x3f, 0x0c, 0x05, 0x0f, 0x3f,
    0x69, 0x23, 0x10, 0x3f, 0xc5, 0x41, 0x11, 0x3f, 0x22, 0x60,
    0x12, 0x3f, 0x7f, 0x7e, 0x13, 0x3f, 0xdc, 0x9c, 0x14, 0x3f,
    0x38, 0xbb, 0x15, 0x3f, 0x95, 0xd9, 0x16, 0x3f, 0xf2, 0xf7,
    0x17, 0x3f, 0x4f, 0x16, 0x19, 0x3f, 0xab, 0x34, 0x1a, 0x3f,
    0x08, 0x53, 0x1b, 0x3f, 0xa5, 0x2f, 0x25, 0xba, 0xe7, 0x41,
    0x00, 0xbd, 0x6b, 0xbd, 0xab, 0xbd, 0x16, 0x64, 0x46, 0xbd,
    0x06, 0x6e, 0x2d, 0x3e, 0x3d, 0x0f, 0xba, 0xbd, 0xb3, 0xff,
    0x63, 0xba, 0x00, 0xfd, 0x13, 0xba, 0x0a, 0x98, 0x11, 0xba,
    0xab, 0x53, 0x3f, 0x3e, 0x00, 0x00, 0x00, 0x00, 0xf9, 0xb8,
    0x60, 0x3e, 0x5d, 0x43, 0xff, 0x3d, 0x15, 0x05, 0xbf, 0xbd,
    0xf6, 0xcc, 0x37, 0xbd, 0x50, 0xd0, 0x9f, 0xbd, 0x94, 0x5a,
    0x52, 0xbd, 0xfe, 0x38, 0x72, 0x3e, 0xe3, 0x45, 0x6a, 0xbd,
    0xcb, 0xed, 0xf5, 0x3d, 0x59, 0x3d, 0x39, 0x3e, 0x83, 0x2c,
    0xa4, 0xbd, 0xd5, 0x8d, 0x04, 0x3e, 0x40, 0xe0, 0x3a, 0x3e,
    0x21, 0xc6, 0x50, 0x3e, 0xe1, 0xa4, 0x58, 0xbd, 0xb2, 0xbb,
    0x77, 0xbd, 0xf2, 0x4f, 0xa2, 0xbd, 0xc5, 0x60, 0xc5, 0xbc,
    0x31, 0x59, 0x65, 0x3e, 0x7f, 0xd8, 0x72, 0x3e, 0x95, 0xc9,
    0xe2, 0x3d, 0xde, 0xb6, 0x03, 0xbe, 0xd5, 0xfa, 0x3c, 0xbe,
    0xa1, 0x3e, 0xe3, 0xbe, 0x5a, 0x39, 0x00, 0xbf, 0x9a, 0x4e,
    0x1c, 0x3e, 0x21, 0x2f, 0xd7, 0xbe, 0x5e, 0xd0, 0xb8, 0xbe,
    0x76, 0x84, 0xa3, 0xbe, 0xb2, 0x78, 0xa6, 0x3e, 0x46, 0xec,
    0x11, 0x3f, 0x70, 0x0f, 0xa1, 0xbc, 0xbb, 0x38, 0x1e, 0x3f,
    0x9c, 0xc0, 0xc0, 0x3e, 0xc3, 0x63, 0xa0, 0xbc, 0x0d, 0x56,
    0xdb, 0xbe, 0x9b, 0x80, 0x1f, 0xbe, 0x28, 0x59, 0x8e, 0xbe,
    0x23, 0xf3, 0xd0, 0x3e, 0x48, 0xd7, 0x14, 0xbf, 0x83, 0x74,
    0xc4, 0x3e, 0x37, 0x3e, 0x13, 0x3f, 0x86, 0xaa, 0xd8, 0xbe,
    0x37, 0x33, 0xb7, 0x3e, 0x9b, 0x3d, 0x1f, 0x3f, 0x57, 0xf8,
    0x3f, 0x3f, 0x4b, 0x6b, 0x06, 0xbf, 0x7a, 0x21, 0x03, 0xbf,
    0xb5, 0x7c, 0xc2, 0xbe, 0x2c, 0x6e, 0x4e, 0xbe, 0x51, 0xc8,
    0x11, 0x3f, 0x95, 0x42, 0x24, 0x3f, 0x46, 0x50, 0x49, 0x3e,
    0xf6, 0x62, 0x03, 0xbe, 0x93, 0xc0, 0xb5, 0x3e, 0x13, 0xce,
    0x6c, 0x3e, 0x40, 0x3c, 0x53, 0x3e, 0xf6, 0xf7, 0xf7, 0xbe,
    0x64, 0xc8, 0x91, 0xbc, 0x40, 0xe5, 0x1d, 0x3e, 0x30, 0x97,
    0x91, 0xbe, 0x56, 0xe8, 0xca, 0x3e, 0x6c, 0x89, 0xb5, 0xbe,
    0x76, 0xfc, 0x49, 0x3e, 0x04, 0xc4, 0xa3, 0xbe, 0x6f, 0x61,
    0x9a, 0xbe, 0xda, 0x82, 0xd4, 0x3e, 0x98, 0xec, 0x8a, 0x3e,
    0x72, 0xbd, 0x09, 0x3f, 0x1d, 0xfb, 0x03, 0x3f, 0xc9, 0xd2,
    0x49, 0xbf, 0x3b, 0x98, 0xf9, 0xbd, 0x8d, 0x3f, 0x63, 0xbd,
    0x74, 0x0c, 0xa2, 0xbc, 0xa8, 0x71, 0x76, 0x3e, 0x7d, 0x31,
    0x28, 0xbe, 0x93, 0xd3, 0x44, 0xbf, 0xf5, 0x00, 0xc6, 0xbe,
    0x72, 0x02, 0x4c, 0x3e, 0xfa, 0x9f, 0x11, 0x3f, 0xd2,
    0x73, 0x85, 0x3c, 0x21, 0x4d, 0x48, 0xbd, 0x56, 0xce,
    0xac, 0xbe, 0xec, 0xd1, 0x78, 0xbe, 0x33, 0xfd, 0xc1,
    0xbd, 0x54, 0x82, 0xf9, 0x3d, 0x54, 0x82, 0xf9, 0xbd
  };

  return AI_HANDLE_PTR(s_network_weights);
}

